TRT-8400-EntropyCalibration2
input: 3c010a14
input.4: 3c1552a1
onnx::MaxPool_323: 3c1552a1
input.8: 3c1552a1
input.16: 3bbbdd83
onnx::Conv_327: 3bbbdd83
input.24: 3baabc08
onnx::Conv_330: 3baabc08
onnx::Add_506: 3b8380d8
onnx::Add_509: 3b96827c
onnx::Relu_335: 3bdff86b
input.36: 3bace32e
input.44: 3b96a27e
onnx::Conv_339: 3b97b968
input.52: 3ba6cd7a
onnx::Conv_342: 3ba6cd7a
onnx::Add_518: 3bb233b3
onnx::Relu_345: 3bc3e845
input.60: 3c0c2b16
input.68: 3bc32f32
onnx::Conv_349: 3b8b3d81
input.76: 3bdcc8dc
onnx::Conv_352: 3bac08ab
onnx::Add_527: 3babeb29
onnx::Relu_355: 3c1c540f
input.84: 3c1c540f
input.92: 3bebf342
onnx::Conv_359: 3bb65e4b
input.100: 3bba337c
onnx::Conv_362: 3bba337c
onnx::Add_536: 3bb591d3
onnx::Add_539: 3bcaac8a
onnx::Relu_367: 3c12d9b2
input.112: 3c329a11
input.120: 3b744db2
onnx::Conv_371: 3b6eea38
input.128: 3c0440de
onnx::Conv_374: 3c0736ef
onnx::Add_548: 3bbcf04a
onnx::Relu_377: 3bd32d78
input.136: 3be52671
input.144: 3bb9df72
onnx::Conv_381: 3bb9e4cf
input.152: 3bd9738d
onnx::Conv_384: 3bab4191
onnx::Add_557: 3be10f4e
onnx::Relu_387: 3c52d892
input.160: 3c52d892
input.168: 3ba006ad
onnx::Conv_391: 3b961a71
input.176: 3be5a607
onnx::Conv_394: 3bc7b8d9
onnx::Add_566: 3be2fbdf
onnx::Relu_397: 3c45d0a1
input.184: 3c467ff6
input.192: 3c339fca
onnx::Conv_401: 3c345065
input.200: 3c059bd9
onnx::Conv_404: 3c059bd9
onnx::Add_575: 3be2ae49
onnx::Add_578: 3bc1580d
onnx::Relu_409: 3c0df525
input.212: 3c2a803e
input.220: 3c0e5c38
onnx::Conv_413: 3c0e5c38
input.228: 3c2014ff
onnx::Conv_416: 3c301047
onnx::Add_587: 3c8077d1
onnx::Relu_419: 3c805719
input.236: 3c6c94c5
input.244: 3bb7766e
onnx::Conv_423: 3bb7766e
input.252: 3bcb5e5e
onnx::Conv_426: 3bab0bcc
onnx::Add_596: 3be0d4fb
onnx::Relu_429: 3c3af2ff
input.260: 3c691c08
input.268: 3be2d02e
onnx::Conv_433: 3be2d02e
input.276: 3c06e3b5
onnx::Conv_436: 3bc96ea9
onnx::Add_605: 3c0fa096
onnx::Relu_439: 3c300346
input.284: 3c747463
input.292: 3bf060d3
onnx::Conv_443: 3bf931bb
input.300: 3be3bacc
onnx::Conv_446: 3bdbc491
onnx::Add_614: 3c07535d
onnx::Relu_449: 3c10ae33
input.308: 3c10ae33
input.316: 3c505b59
onnx::Conv_453: 3c46f088
input.324: 3c67ef2b
onnx::Conv_456: 3c421f7c
onnx::Add_623: 3c43c351
onnx::Relu_459: 3c586b14
input.332: 3c586b14
input.340: 3c676a6f
onnx::Conv_463: 3c1ca5d5
input.348: 3be5fadc
onnx::Conv_466: 3be5fadc
onnx::Add_632: 3cbca4c4
onnx::Add_635: 3cbca9f6
onnx::Relu_471: 3d0b073e
input.360: 3d0b073e
input.368: 3be7850c
onnx::Conv_475: 3bcf4674
input.376: 3c03e18c
onnx::Conv_478: 3ba42d8f
onnx::Add_644: 3c88a8a7
onnx::Relu_481: 3d30b77f
input.384: 3d308c64
input.392: 3c141ce4
onnx::Conv_485: 3bf082f4
input.400: 3c074ae8
onnx::Conv_488: 3c001d2c
onnx::Add_653: 3d680f79
onnx::Relu_491: 3d8f4dfc
input.408: 3da4c59e
onnx::Flatten_493: 3cf0e043
(Unnamed Layer* 126) [Shuffle]_output: 3d850610
output: 3c00c6ee
